TRT-100300-EntropyCalibration2
Input: 3f9849a2
convolution_output50: 3d72da72
activation_2/Relu:0: 3d72da72
convolution_output47: 3e085326
convolution_output49: 3e0063d0
block_1a_relu_1/Relu:0: 3dae97c5
convolution_output46: 3e08d276
add_9/add:0: 3e34c19a
block_1a_relu/Relu:0: 3e30df10
convolution_output42: 3dffcc0a
convolution_output43: 3d94135a
block_1b_relu_1/Relu:0: 3d79e28f
convolution_output41: 3db6c37f
add_10/add:0: 3e11dccd
block_1b_relu/Relu:0: 3e0a653a
convolution_output35: 3d638c96
convolution_output38: 3dc4cfac
block_2a_relu_1/Relu:0: 3db78911
convolution_output34: 3d98e1a4
add_11/add:0: 3dd007a1
block_2a_relu/Relu:0: 3dd088a8
convolution_output30: 3dae6906
convolution_output33: 3d976d8c
block_2b_relu_1/Relu:0: 3d3d8678
convolution_output29: 3d5cea8f
add_12/add:0: 3daf27de
block_2b_relu/Relu:0: 3daf27de
convolution_output25: 3d608d4e
convolution_output56: 3d1ff9c4
convolution_output59: 3d77f2b5
yolo_x_branch_2_lrelu/LeakyRelu:0: 3d05b218
block_3a_relu_1/Relu:0: 3d51843b
convolution_output55: 3d8b2a42
add_13/add:0: 3dd612d6
block_3a_relu/Relu:0: 3dbcb492
convolution_output52: 3db55408
convolution_output54: 3db4426d
block_3b_relu_1/Relu:0: 3d1761bf
convolution_output51: 3d261007
add_14/add:0: 3dc99563
block_3b_relu/Relu:0: 3dcb599c
convolution_output45: 3d474498
convolution_output62: 3d5b2903
convolution_output63: 3d7370b5
yolo_x_branch_lrelu/LeakyRelu:0: 3d139a38
block_4a_relu_1/Relu:0: 3d106c8c
convolution_output61: 3d77c012
add_15/add:0: 3d9b09d9
block_4a_relu/Relu:0: 3d87b0bd
convolution_output58: 3da3fbdb
convolution_output60: 3d745902
block_4b_relu_1/Relu:0: 3cfa15cb
convolution_output57: 3e805022
add_16/add:0: 3e594f58
block_4b_relu/Relu:0: 3e236a05
convolution_output53: 3d67ca86
yolo_neck_1_lrelu/LeakyRelu:0: 3d04348d
convolution_output48: 3d53d899
yolo_neck_2_lrelu/LeakyRelu:0: 3d01b900
convolution_output44: 3d48fbcd
yolo_neck_3_lrelu/LeakyRelu:0: 3cf98e3e
yolo_neck_3_lrelu/LeakyRelu:0_pooling0: 3cf98e3e
yolo_neck_3_lrelu/LeakyRelu:0_pooling01: 3cf98e3e
yolo_neck_3_lrelu/LeakyRelu:0_pooling02: 3cf98e3e
yolo_spp_concat/concat:0: 3d3a9e72
convolution_output39: 3d222984
yolo_spp_conv_lrelu/LeakyRelu:0: 3ccdc995
convolution_output36: 3d1d4294
yolo_expand_conv1_lrelu/LeakyRelu:0: 3ccdcfa4
convolution_output31: 3d189eac
yolo_conv1_2_lrelu/LeakyRelu:0: 3cdabce2
convolution_output27: 3d237109
yolo_conv1_3_lrelu/LeakyRelu:0: 3cdde580
convolution_output21: 3d343a6f
yolo_conv2_lrelu/LeakyRelu:0: 3d05694d
upsample0/transpose_1:0: 3d05694d
concatenate_5/concat:0: 3d13ca24
convolution_output40: 3d4437b1
yolo_conv3_1_lrelu/LeakyRelu:0: 3d017d5a
convolution_output37: 3d3fbb75
yolo_conv3_2_lrelu/LeakyRelu:0: 3cfa0948
convolution_output32: 3d507cba
yolo_conv3_3_lrelu/LeakyRelu:0: 3d1b38b3
convolution_output28: 3d43f012
yolo_conv3_4_lrelu/LeakyRelu:0: 3d290458
convolution_output23: 3d4df853
yolo_conv3_5_lrelu/LeakyRelu:0: 3d229ba0
convolution_output26: 3d83d230
yolo_conv4_lrelu/LeakyRelu:0: 3d51596d
upsample1/transpose_1:0: 3d51596d
concatenate_6/concat:0: 3d2a1634
convolution_output20: 3d58fe8b
yolo_conv5_1_lrelu/LeakyRelu:0: 3d3f65dd
convolution_output17: 3d58dce5
yolo_conv5_2_lrelu/LeakyRelu:0: 3d275b43
convolution_output14: 3d81cd24
yolo_conv5_3_lrelu/LeakyRelu:0: 3d3c817e
convolution_output11: 3d8969a1
yolo_conv5_4_lrelu/LeakyRelu:0: 3d42239d
convolution_output8: 3d875a3e
yolo_conv5_5_lrelu/LeakyRelu:0: 3d269ffd
convolution_output5: 3d969b70
convolution_output24: 3d8451d4
yolo_conv5_6_lrelu/LeakyRelu:0: 3d451cfd
yolo_sm_branch_conv_lrelu/LeakyRelu:0: 3d736c9b
convolution_output2: 3e769256
concatenate_7/concat:0: 3d449ad8
md_bbox_processor/sub_1:0: 3d810a14
box/mul_6/x:0_output: 3b810a14
sm_permute/transpose:0: 3e769256
convolution_output19: 3d659a37
BatchedNMS_3: 3d010a14
sm_reshape/Reshape:0: 3e769256
yolo_conv3_5_1_lrelu/LeakyRelu:0: 3d1e4a04
convolution_output3: 3db59c0f
box/mul_4:0: 3ab33c49
md_bbox_processor/mul:0: 3c0d1734
box/add_3:0: 3c018949
bg_bbox_processor/Reshape_1:0: 3e571e47
box: 3c01a4c8
md_reshape/Reshape:0: 3e85eafe
convolution_output: 3e5d0ffd
bg_bbox_processor/Reshape:0_cropping01: 3c9da139
convolution_output18: 3d6c09b1
sm_bbox_processor/Sigmoid:0: 3bfb8d3d
box/Reshape:0_cropping07: 39f2e5cc
md_anchor/Const:0_output: 3bfdc706
md_bbox_processor/Reshape:0: 3e85eafe
sm_bbox_processor/Minimum_min0: 3cafd24c
bg_bbox_processor/sub:0: 3c13bc6d
sm_bbox_processor/sub_1:0: 3d810a14
convolution_output7: 3d6cdfd6
sm_bbox_processor/sub/y:0_output: 3a4e7687
cls/Reshape:0: 3ea4c29f
md_bbox_processor/Minimum_min0: 3c61b1f9
box/sub_1:0: 3c01f4b1
ONNXTRT_Broadcast_749_output: 3c077dc8
cls/Sigmoid:0: 3c010a14
bg_anchor/Const:0_output: 3bf0f380
box/Reshape:0_cropping04: 3a41b5a8
BatchedNMS_2: 3c03d6ef
md_anchor/FirstDimTile/Tile:0: 3bfdc706
concatenate_8/concat:0: 3d3944b3
convolution_output16: 3d5fd97d
box/Reshape:0_cropping0: 3bffed97
md_permute/transpose:0: 3e85eafe
BatchedNMS_1: 3c010a14
encoded_md/concat:0: 3e2a09ea
yolo_conv3_4_2_lrelu/LeakyRelu:0: 3d200f7e
cls/Reshape:0_cropping01: 3eb3a292
encoded_bg/concat:0: 3e37c1ed
convolution_output4: 3d65ff25
box/Reshape:0_cropping08: 3aa4cf52
bg_permute/transpose:0: 3e5d0ffd
md_bbox_processor/concat:0: 3ea473af
convolution_output9: 3d598baf
md_bbox_processor/Reshape_1:0: 3ea473af
convolution_output12: 3d87d3e2
yolo_conv1_6_lrelu/LeakyRelu:0: 3d512cb1
bg_bbox_processor/Exp:0: 3d8cbf04
box/mul_2:0: 3b860b85
bg_leaky_conv1024_lrelu/LeakyRelu:0: 3d8c9fda
ONNXTRT_Broadcast_497_output: 39ce7687
box/Reshape:0_cropping05: 3d2c2fdd
cls: 3b2f75f2
box/Reshape:0: 3ea4c29f
bg_anchor/Reshape:0: 3bf0f380
sm_bbox_processor/Reshape:0_cropping0: 3ea43c39
box/mul_6:0: 3b060b85
box/Reshape:0_cropping09: 3db72349
box/mul_4/x:0_output: 3b810a14
sm_bbox_processor/mul:0: 3c16ee59
bg_bbox_processor/Reshape:0_cropping0: 3e7852e1
box/add:0: 3c01a3f2
box/add_2:0: 3c01a4c8
bg_bbox_processor/Sigmoid:0: 3c0c5cb8
md_bbox_processor/add/y:0_output: 3d810a14
bg_bbox_processor/mul:0: 3c13615b
yolo_conv1_5_lrelu/LeakyRelu:0: 3d253aff
sm_bbox_processor/mul/y:0_output: 3c1ad8e6
box/Reshape:0_cropping03: 3989a45b
sm_bbox_processor/Reshape:0_cropping02: 3d034877
sm_bbox_processor/Exp:0: 3d86e289
bg_bbox_processor/Reshape:0_cropping02: 3d53e259
ONNXTRT_Broadcast_output: 3d810a14
ONNXTRT_Broadcast_493_output: 3d810a14
bg_bbox_processor/sub/y:0_output: 394e7687
box/add_1:0: 3c4ef053
box/Reshape:0_cropping02: 3c0444e5
ONNXTRT_Broadcast_1287_output: 3b810a14
cls/Reshape:0_cropping0: 3e63a024
md_bbox_processor/Reshape:0_cropping0: 3e8c71f4
convolution_output15: 3d7374fe
sm_bbox_processor/concat:0: 3e9d3c3f
ONNXTRT_Broadcast_243_output: 3a4e7687
yolo_conv1_3_1_lrelu/LeakyRelu:0: 3d18d175
convolution_output1: 3e85eafe
box/mul_3:0: 3b333c49
yolo_conv1_4_lrelu/LeakyRelu:0: 3d2bebce
md_leaky_conv512_down_lrelu/LeakyRelu:0: 3d4df311
md_leaky_conv1024_lrelu/LeakyRelu:0: 3d3a61c3
md_leaky_conv512_lrelu/LeakyRelu:0: 3d20bf8a
sm_bbox_processor/sub:0: 3c17407b
bg_bbox_processor/add:0: 3db0d8e1
md_bbox_processor/sub:0: 3c079f46
bg_bbox_processor/Minimum_min0: 3c9da139
md_bbox_processor/mul/y:0_output: 3c0df17d
sm_bbox_processor/add/y:0_output: 3d810a14
cls/Sigmoid_1:0: 3b3565e9
ONNXTRT_Broadcast_1289_output: 3b810a14
md_bbox_processor/Sigmoid:0: 3c0043a3
bg_leaky_conv512_lrelu/LeakyRelu:0: 3d2c8a18
bg_reshape/Reshape:0: 3e5d0ffd
box/Reshape:0_cropping06: 3c03fbf4
md_bbox_processor/Reshape:0_cropping02: 3d1079e1
bg_bbox_processor/Reshape:0: 3e5d0ffd
md_bbox_processor/sub/y:0_output: 39ce7687
box/sub:0: 3c094f09
encoded_detections/concat:0: 3ea4c29f
md_anchor/Reshape:0: 3bfdc706
sm_bbox_processor/Reshape_1:0: 3e9d3c3f
bg_anchor/FirstDimTile/Tile:0: 3bf0f380
encoded_sm/concat:0: 3ea4c29f
convolution_output22: 3d692dfc
box/mul_1:0: 398d7d54
convolution_output6: 3d63c844
box/Reshape:0_cropping01: 3bfe4891
md_bbox_processor/Exp:0: 3d367f55
ONNXTRT_Broadcast_495_output: 3c0df17d
bg_bbox_processor/concat:0: 3e571e47
sm_bbox_processor/add:0: 3dad57de
convolution_output13: 3d69b5db
sm_anchor/Const:0_output: 3bffed97
md_bbox_processor/Reshape:0_cropping01: 3c61b1f9
ONNXTRT_Broadcast_747_output: 3d810a14
sm_anchor/FirstDimTile/Tile:0: 3bffed97
sm_bbox_processor/Reshape:0_cropping01: 3cafd24c
bg_bbox_processor/sub_1:0: 3d810a14
bg_bbox_processor/mul/y:0_output: 3c077dc8
yolo_conv3_5_1_1_lrelu/LeakyRelu:0: 3d28994f
sm_anchor/Reshape:0: 3bffed97
box/mul:0: 39e0903c
md_bbox_processor/add:0: 3d9aaaa7
convolution_output10: 3d698da4
sm_bbox_processor/Reshape:0: 3e769256
yolo_conv3_6_lrelu/LeakyRelu:0: 3d31e343
ONNXTRT_Broadcast_751_output: 394e7687
ONNXTRT_Broadcast_241_output: 3c1ad8e6
bg_bbox_processor/add/y:0_output: 3d810a14
